, 191296
. 161202
the 134481
and 96624
to 78652
of 73754
a 71027
that 59845
i 53405
in 51612
it 49432
you 45801
we 42022
is 41915
&apos;s 36496
this 32257
so 23494
&quot; 22852
they 21007
was 19127
-- 18933
for 18916
on 18868
are 17909
have 17288
what 17120
but 16752
with 15941
can 15309
? 14240
&apos;t 14068
about 13651
there 13588
as 13184
at 13082
be 12887
all 12554
do 11707
not 11581
one 11448
an 11006
&apos;re 10907
my 10862
people 10595
if 10202
like 10186
from 10109
or 9629
he 9516
now 9322
these 9032
just 8919
our 8569
: 8429
when 8223
because 8186
very 8179
me 7955
out 7849
how 7712
by 7706
up 7411
know 7369
them 7255
going 7191
which 6933
more 6748
think 6689
here 6679
had 6653
see 6613
your 6357
who 6330
really 6270
us 6245
ed 6236
ing 6201
their 6197
get 6133
then 6116
would 6075
were 5999
&apos;ve 5949
world 5792
re@@ 5667
time 5616
some 5607
&apos;m 5554
has 5405
way 5340
don 5304
actually 5277
into 5186
where 5090
things 4957
go 4892
will 4881
years 4852
other 4684
es 4645
no 4566
well 4541
could 4496
want 4455
make 4323
been 4284
-@@ 4250
said 4250
right 4239
she 4118
something 4066
y 3885
first 3857
two 3839
those 3792
than 3786
look 3769
c@@ 3765
in@@ 3761
his 3710
s 3697
thing 3666
little 3624
new 3603
got 3590
also 3569
much 3481
life 3454
back 3449
say 3420
work 3410
; 3382
over 3367
most 3364
s@@ 3364
only 3230
even 3196
e@@ 3177
kind 3142
take 3136
a@@ 3069
un@@ 3068
able 3047
many 3047
did 2995
need 2973
al 2947
good 2937
lot 2890
ti@@ 2855
why 2847
around 2843
down 2821
let 2815
come 2790
i@@ 2769
ted 2768
&apos;ll 2732
o@@ 2701
different 2695
use 2691
through 2678
her 2665
every 2654
day 2643
d@@ 2635
g@@ 2627
de@@ 2606
t@@ 2539
p@@ 2499
being 2488
ts 2481
same 2464
put 2457
its 2444
y@@ 2398
doing 2395
di@@ 2381
co@@ 2367
li@@ 2300
b@@ 2299
e 2288
er 2266
three 2261
con@@ 2242
called 2236
any 2207
en@@ 2196
percent 2164
ma@@ 2150
&apos;d 2141
talk 2138
made 2131
u@@ 2122
great 2093
today 2080
m 2075
after 2066
ar@@ 2059
ri@@ 2029
tell 2014
ated 1999
ds 1966
human 1959
po@@ 1949
o 1946
ly 1937
year 1930
big 1926
ers 1913
find 1906
fact 1903
se@@ 1888
another 1885
last 1874
p 1863
own 1860
change 1842
idea 1836
dis@@ 1829
didn 1825
before 1806
t 1803
went 1799
r@@ 1796
should 1796
give 1787
started 1781
thought 1773
le@@ 1767
m@@ 1763
al@@ 1761
ro@@ 1757
pro@@ 1744
an@@ 1740
ting 1730
off 1724
man 1714
v@@ 1713
ve 1701
story 1697
l@@ 1695
tions 1684
never 1683
better 1681
com@@ 1681
again 1676
course 1669
important 1667
k@@ 1658
le 1658
ch@@ 1639
show 1638
does 1631
end 1629
system 1623
problem 1622
next 1619
him 1618
lo@@ 1612
place 1612
used 1611
start 1608
might 1604
water 1604
f@@ 1603
together 1600
still 1597
part 1592
each 1590
brain 1581
ad@@ 1580
thank 1575
ate 1574
ago 1573
came 1557
technology 1551
on@@ 1548
bit 1546
d 1537
c 1525
te 1519
th@@ 1508
ation 1504
or@@ 1498
&apos; 1487
few 1483
between 1482
long 1478
ra@@ 1477
ating 1462
st@@ 1455
ous 1452
looking 1446
too 1442
mean 1435
point 1435
children 1424
ac@@ 1419
ex@@ 1414
try 1409
maybe 1403
se 1397
done 1392
pre@@ 1384
bi@@ 1380
tion 1375
ever 1374
h@@ 1370
found 1369
sort 1363
less 1360
love 1360
question 1356
ded 1354
el@@ 1354
bo@@ 1352
whole 1347
si@@ 1346
example 1341
ce 1338
sh@@ 1334
data 1333
doesn 1332
red 1331
school 1331
it@@ 1326
mi@@ 1321
understand 1320
l 1308
light 1307
may 1307
as@@ 1304
g 1302
using 1300
wanted 1291
four 1290
working 1289
at@@ 1288
am 1286
ke 1286
live 1285
w@@ 1279
pe@@ 1277
million 1276
real 1272
ta@@ 1272
ent 1268
away 1265
ct 1264
women 1253
pi@@ 1248
person 1247
trying 1247
old 1245
be@@ 1239
call 1238
ding 1234
believe 1231
everything 1226
ty 1225
money 1222
ck 1220
ic 1215
power 1215
ally 1212
always 1210
per@@ 1209
10 1205
kids 1202
ction 1201
five 1197
k 1194
age 1190
est 1190
feel 1188
vi@@ 1186
design 1175
country 1171
help 1171
ab@@ 1169
sc@@ 1169
space 1168
car@@ 1162
ni@@ 1159
par@@ 1140
number 1138
second 1138
comes 1134
times 1133
de 1132
im@@ 1129
took 1127
ary 1126
create 1124
ine 1124
information 1121
thinking 1121
n@@ 1119
b 1117
op@@ 1115
food 1114
me@@ 1114
means 1111
energy 1108
bu@@ 1104
making 1098
ks 1097
sense 1088
! 1084
future 1083
getting 1080
h 1077
quite 1077
als 1076
es@@ 1076
become 1075
city 1073
j@@ 1072
ses 1072
enough 1071
mar@@ 1067
em@@ 1063
th 1061
ves 1061
to@@ 1058
best 1052
ons 1051
small 1050
building 1049
probably 1049
science 1046
says 1045
la@@ 1041
ability 1039
side 1039
king 1036
ter 1026
play 1025
gra@@ 1024
um 1024
do@@ 1020
am@@ 1019
without 1019
mo@@ 1018
interesting 1016
left 1014
ne@@ 1011
stuff 1010
body 1008
home 1004
ant 1001
social 1001
er@@ 998
su@@ 997
africa 992
ble 992
w 992
inter@@ 991
talking 990
happened 988
ways 987
room 985
coming 983
der 981
tive 973
ist 972
men 972
ties 971
fe@@ 969
earth 968
form 965
dollars 964
pa@@ 963
art 960
tic 960
tra@@ 959
set 951
anything 950
build 949
half 949
is@@ 940
ask 939
line 939
te@@ 939
pretty 938
goes 935
ge@@ 933
x 933
while 932
no@@ 931
ar 929
cted 927
lives 925
days 922
seen 920
move 919
hi@@ 916
across 912
told 911
makes 907
simple 906
cor@@ 904
ment 903
ok 901
ps 901
case 899
else 899
ies 899
living 899
ins 895
mon@@ 894
such 893
20 891
basically 891
ver@@ 890
once 889
happen 886
saw 886
moment 884
health 881
ch 879
yet 878
countries 876
book 873
picture 872
project 871
imagine 870
des 868
ance 866
bad 866
hand 866
mind 865
sa@@ 863
okay 862
care 861
he@@ 855
problems 852
having 851
happens 850
ged 849
car 847
hard 844
ms 843
family 841
experience 835
ho@@ 832
later 832
global 831
sts 831
sure 831
z@@ 831
ci@@ 830
asked 829
ors 829
.@@ 828
for@@ 827
fi@@ 826
ideas 825
ones 825
learn 822
computer 819
high 818
ir@@ 817
oh 817
ck@@ 816
inside 815
tri@@ 815
everybody 810
business 809
six 809
young 809
ful 808
nature 808
history 806
process 806
reason 803
states 801
ely 796
planet 794
saying 793
both 791
n 790
nothing 789
over@@ 787
ws 786
within 784
almost 783
cells 781
min@@ 779
looks 778
per 777
already 774
billion 771
top 771
sing 770
child 769
cu@@ 769
whether 769
keep 768
r 768
state 768
far 766
gu@@ 766
ings 766
single 765
so@@ 763
music 760
50 758
bring 758
wrong 754
ans 751
son 749
cancer 747
remember 747
true 747
ca@@ 746
land 745
possible 745
under@@ 744
hope 742
guy 740
ter@@ 739
heard 738
beautiful 737
order 735
war 735
du@@ 734
looked 733
0s 731
under 731
often 729
ent@@ 727
zed 724
open 722
&amp; 721
sub@@ 721
matter 719
ol@@ 719
face 718
qu@@ 718
ul@@ 716
yes 716
gets 715
ha@@ 714
ity 714
ging 713
read 713
group 712
months 712
mu@@ 712
pres@@ 712
pri@@ 711
cy 710
gi@@ 710
ence 709
trans@@ 708
house 707
works 707
3@@ 704
answer 703
ze 703
someone 701
30 700
ments 700
piece 700
universe 700
public 698
united 696
video 695
amazing 694
india 694
sp@@ 693
built 692
instead 692
late 691
research 691
stories 691
taking 691
ars 690
community 690
head 690
since 688
ourselves 687
god 686
places 685
ved 684
da@@ 682
myself 680
words 680
isn 679
until 679
sta@@ 675
ving 675
her@@ 674
tu@@ 673
sometimes 672
education 670
species 670
control 665
den@@ 665
sen@@ 665
ur@@ 664
out@@ 663
turn 663
couple 662
government 662
ates 661
che@@ 661
language 661
ents 660
les 660
decided 659
... 658
internet 658
sur@@ 657
somebody 656
rather 653
d-@@ 652
led 651
heart 648
ste@@ 648
f 647
tional 646
can@@ 645
happy 645
ness 645
ge 643
though 643
ces 642
middle 642
pl@@ 641
kinds 640
level 640
turns 640
cre@@ 637
exactly 637
fo@@ 635
mis@@ 634
mother 634
night 634
ot@@ 634
ph@@ 633
man@@ 631
completely 627
wasn 626
everyone 625
na@@ 625
run 625
stop 625
rate 624
themselves 624
job 623
ber@@ 622
fa@@ 622
large 622
sion 622
woman 622
became 621
br@@ 621
minutes 621
je@@ 619
ru@@ 619
yeah 618
model 617
word 616
ined 615
itself 614
front 613
students 612
created 610
share 610
must 609
ations 608
game 608
dra@@ 607
learned 607
re 607
society 607
100 606
sti@@ 605
animals 604
table 604
act 602
cks 602
company 602
et@@ 602
om@@ 602
huge 599
wa@@ 599
name 598
century 597
systems 597
america 596
happening 595
ju@@ 595
&#91; 593
&#93; 593
4@@ 593
res@@ 592
study 592
hear 591
il@@ 590
news 590
third 590
environment 589
y-@@ 588
friends 586
shows 586
view 586
hours 585
ling 585
natural 584
el 583
guys 583
cr@@ 582
oil 582
bar@@ 581
x@@ 581
china 580
stic 580
sed 579
ag@@ 577
worked 577
knew 575
moving 575
et 573
won 572
along 571
couldn 571
har@@ 571
go@@ 568
flo@@ 567
american 566
fish 566
ten@@ 566
perhaps 565
air 564
disease 564
ger 564
col@@ 562
market 562
figure 561
particular 561
based 560
early 560
em 560
sound 560
questions 559
sha@@ 559
self-@@ 558
turned 558
against 557
sted 557
wi@@ 555
cra@@ 554
past 554
lin@@ 553
sho@@ 553
others 552
learning 551
jo@@ 550
ked 550
least 550
cur@@ 549
ters 549
area 548
lots 548
during 547
ocean 547
test 546
zing 545
known 543
cally 541
gave 541
ali@@ 540
takes 540
cell 539
us@@ 538
machine 537
war@@ 537
wing 537
finally 536
father 533
outside 532
gh@@ 530
5@@ 528
wonderful 528
cts 526
free 526
scale 526
taken 526
ture 526
um@@ 526
ying 526
tation 524
15 521
needs 521
ap@@ 520
entire 520
ga@@ 519
fl@@ 517
close 516
seven 516
des@@ 515
thousands 515
clo@@ 514
difference 514
culture 513
ics 513
ator 512
tor@@ 512
au@@ 510
we@@ 510
changed 509
powerful 509
sk@@ 509
cing 508
parts 507
e-@@ 506
population 506
pos@@ 506
whatever 505
ground 504
yourself 504
phone 501
bor@@ 500
given 500
beginning 499
bur@@ 499
ess 499
super@@ 499
key 498
stage 498
ce@@ 496
tr@@ 496
behind 494
cal 493
seeing 491
ism 490
st 490
terms 490
certain 489
leave 489
ver 489
parents 488
ches 487
ev@@ 487
grow 486
ure 486
audience 485
economic 485
size 485
eyes 484
walk 484
cost 483
york 483
2 482
ges 482
ari@@ 481
cannot 481
easy 481
interested 481
difficult 480
green 480
image 479
rest 479
ry 479
eight 478
force 477
pped 476
ia 475
media 475
amount 474
cri@@ 473
cting 472
dy 472
pen@@ 472
spend 472
center 471
tion@@ 470
began 469
fly 469
id 469
local 469
va@@ 469
ba@@ 468
ou@@ 468
20@@ 467
gl@@ 467
hu@@ 467
and@@ 466
buy 466
gs 466
u.s. 466
death 465
gone 465
wor@@ 465
common 464
full 464
paper 464
deal 463
fu@@ 462
black 461
team 461
friend 460
ser@@ 460
off@@ 459
gr@@ 457
simply 457
7@@ 455
books 455
bri@@ 455
ously 455
ned 453
ders 452
ship 452
week 452
humans 451
low 451
realized 451
mit 450
needed 450
wh@@ 450
fac@@ 449
hands 449
hold 449
cities 448
ec@@ 448
ase 447
longer 447
rec@@ 447
field 446
born 445
char@@ 444
der@@ 444
value 443
6@@ 442
fin@@ 442
u 442
dan@@ 441
dly 441
tried 441
step 440
complex 439
growth 439
mor@@ 439
either 438
forward 438
spent 438
str@@ 437
lt 436
stri@@ 436
feet 435
surface 435
watch 435
companies 434
coun@@ 434
incredible 434
sitting 434
structure 434
girl 432
dna 431
pu@@ 431
0,000 430
clear 430
lation 430
ice 429
lost 428
quickly 428
19@@ 427
ie 427
kes 427
national 427
tan@@ 427
ality 426
cap@@ 424
up@@ 424
ja@@ 423
west 423
white 422
blue 421
cked 421
growing 420
wouldn 420
felt 419
ven@@ 419
ki@@ 418
miles 418
political 418
stra@@ 418
ens 417
gre@@ 417
knowledge 417
micro@@ 417
behavior 416
die 416
dri@@ 416
met 416
nu@@ 416
sea 416
south 416
eat 415
giving 415
reality 415
,000 414
9@@ 414
pay 414
sting 414
ic@@ 413
economy 412
pt 412
write 412
3 411
8 411
brought 411
ctions 411
cop@@ 410
ma 410
8@@ 409
weeks 408
ys 408
40 407
animal 407
ining 407
poor 407
ell@@ 406
opportunity 406
fun 405
technologies 405
/ 404
ats 404
scientists 404
pur@@ 403
tur@@ 403
changes 402
telling 402
wrote 402
anyone 401
els 401
fast 401
areas 400
personal 400
bs 399
ger@@ 399
starting 399
cking 398
equ@@ 398
street 398
yo@@ 398
climate 397
cut 397
developed 397
mal@@ 396
patients 396
spi@@ 394
theory 393
bed 392
images 392
morning 392
cy@@ 391
ei@@ 391
inten@@ 391
mer@@ 389
program 389
understanding 389
fied 388
ori@@ 388
cer@@ 387
short 387
sun 387
feeling 386
gener@@ 386
squ@@ 386
4 385
gives 385
patient 385
air@@ 384
nice 384
yed 384
bio@@ 383
cho@@ 383
tical 383
average 382
ched 381
material 381
numbers 381
attention 380
mil@@ 380
playing 380
speak 380
bra@@ 379
mate 379
seems 379
cars 378
dro@@ 378
fully 378
produce 378
vo@@ 378
discovered 377
ented 377
the@@ 377
7 376
ently 376
ton 376
tro@@ 376
cul@@ 375
forms 375
ning 375
stor@@ 375
tools 375
hand@@ 374
tru@@ 374
challenge 373
ke@@ 373
non-@@ 373
literally 372
lu@@ 372
por@@ 372
pping 372
ban@@ 371
mine 371
recently 371
vision 371
board 370
changing 370
bottom 369
creating 369
millions 369
movement 369
access 368
ard 368
bl@@ 368
eg@@ 368
film 368
main 368
6 367
normal 367
ster 367
alone 366
developing 366
ths 366
deep 364
individual 364
running 364
shape 364
12 363
uses 363
1 362
died 362
gen@@ 362
law 362
modern 361
physical 361
realize 361
auth@@ 360
medi@@ 360
nobody 360
head@@ 359
ical 359
ns 359
relationship 359
sive 359
gro@@ 358
physi@@ 358
focus 357
ology 357
deli@@ 356
eth@@ 356
girls 356
absolutely 355
bes 355
colle@@ 355
cs 355
pan@@ 355
web 355
compassion 354
hundreds 354
dar@@ 353
english 353
lab 353
showed 353
und@@ 353
wish 353
dark 352
designed 352
gers 352
map 352
ob@@ 352
wall 352
blood 351
development 351
ement 351
swe@@ 351
knows 350
quality 350
result 350
cli@@ 349
product 349
anybody 348
soon 348
1@@ 347
lar@@ 347
medical 347
mer 347
solution 347
ther 347
vis@@ 347
available 346
especially 346
innovation 346
moved 346
seem 346
talked 346
cat@@ 345
generation 345
haven 345
incredibly 345
industry 345
obviously 345
save 345
vers 345
9 344
cla@@ 344
don@@ 343
connected 342
fra@@ 342
ingly 342
revolution 342
cool 341
experiment 341
ff@@ 341
position 341
prin@@ 341
box 340
chinese 340
likely 340
major 340
north 340
stand 340
tiny 340
pe 339
solve 339
199@@ 338
materials 338
tend 338
tors 338
pla@@ 337
begin 336
den 336
tics 336
becomes 335
bigger 335
far@@ 335
evolution 334
issue 334
od@@ 334
security 334
support 334
wal@@ 334
25 333
fall 333
games 333
kid 333
perfect 333
university 333
writing 333
allow 332
online 332
she@@ 332
asking 331
cal@@ 331
class 331
resources 331
meet 330
beyond 329
cles 329
effect 329
hour 329
mental 329
wn 329
color 328
east 328
europe 328
please 328
situation 328
ther@@ 328
type 328
reasons 327
aren 326
bas@@ 326
continu@@ 326
network 326
pictures 326
ster@@ 326
device 325
explain 325
hor@@ 325
lived 325
mass 325
present 325
5 324
depen@@ 324
oper@@ 324
putting 323
wer 323
ced 322
sters 322
all@@ 321
cation 321
inv@@ 321
tells 321
tes 321
— 321
action 320
dr@@ 320
fear 320
happiness 320
drive 319
eless 319
fil@@ 319
guess 319
impact 319
ll@@ 319
sli@@ 319
groups 318
ment@@ 318
office 318
pac@@ 318
teachers 318
ash@@ 317
computers 317
digital 317
ig@@ 317
teach 317
cro@@ 316
en 316
ker 316
sal@@ 316
source 316
special 316
towards 316
town 316
gt 315
rules 315
schools 315
star@@ 315
voice 315
fir@@ 314
scientific 314
lines 313
active 312
pal@@ 312
sions 312
ared 311
baby 311
bro@@ 311
dead 311
tic@@ 311
vent@@ 311
worth 311
activity 310
ences 310
onto 310
suddenly 310
basic 309
general 309
mission 309
road 309
similar 309
solar 309
ted@@ 309
ad 308
boy 308
door 308
issues 308
os 308
chance 307
il 307
several 307
cket 306
involved 306
syn@@ 306
truth 306
mic 305
projects 305
certainly 304
robot 304
sounds 304
60 303
80 303
evidence 303
indeed 303
predi@@ 303
risk 303
sel@@ 303
appe@@ 302
est@@ 302
hundred 302
sil@@ 302
asi@@ 301
impro@@ 301
ped 301
wind 301
eye 300
month 300
pas@@ 300
break 299
gar@@ 299
ill@@ 299
ls 299
message 299
mp@@ 299
fer 298
positive 298
strong 298
village 298
ching 297
choice 297
enter@@ 297
formed 297
hit 297
particularly 297
prote@@ 297
ball 296
wants 296
ature 295
brea@@ 295
recor@@ 295
gue 294
hal@@ 294
minute 294
vel@@ 294
whe@@ 294
anyway 293
sig@@ 293
11 292
cations 292
list 292
nine 292
software 292
talks 292
code 291
plants 291
speed 291
carbon 290
clu@@ 290
moral 290
pul@@ 290
spo@@ 290
wait 290
ators 289
fer@@ 289
om 289
poli@@ 289
wo@@ 289
cam@@ 288
matic 288
object 288
showing 288
stay 288
listen 287
skin 287
teacher 287
college 286
democracy 286
everywhere 286
pattern 286
potential 286
sent 286
smart 286
starts 286
tre@@ 286
ative 285
exciting 285
high-@@ 285
interest 285
journey 285
sit 285
uni@@ 285
ust 285
ber 284
blo@@ 284
bon@@ 284
chan@@ 284
exc@@ 284
grand@@ 284
indi@@ 284
notice 284
totally 284
econom@@ 283
examples 283
mit@@ 283
nuclear 283
stat@@ 283
top@@ 283
tun@@ 283
cin@@ 282
row 282
student 282
tives 282
version 282
back@@ 281
biggest 281
fire 281
ligh@@ 281
page 281
hospital 280
ner 280
aging 279
bat@@ 279
cian 279
develop 279
further 279
grew 279
lea@@ 279
plan 279
2@@ 278
ended 278
ler 278
measure 278
pick 278
send 278
t-@@ 278
ures 278
walking 278
google 277
hiv 277
period 277
ready 277
acc@@ 276
add 276
esti@@ 276
my@@ 276
products 276
ably 275
ill 275
lead 275
among 274
dec@@ 274
mes 274
alized 273
cent 273
follow 273
lose 273
ot 273
peace 273
posed 273
self 273
ye@@ 273
bel@@ 272
ctive 272
cultural 272
fri@@ 272
largest 272
loo@@ 272
reach 272
san@@ 272
store 272
yp@@ 272
cies 271
continue 271
creative 271
gas 271
jobs 271
named 271
poverty 271
somehow 271
watching 271
18@@ 270
ases 270
hop@@ 270
international 270
men@@ 270
points 270
rich 270
sun@@ 270
tal 270
500 269
cru@@ 269
extremely 269
medicine 269
eventually 268
ing@@ 268
ini@@ 268
organization 268
ran@@ 268
electricity 267
han@@ 267
ner@@ 267
nor@@ 267
z 267
ants 266
approach 266
brains 266
dou@@ 266
except 266
foot 266
movie 266
ren@@ 266
wards 266
arm 265
cause 265
extraordinary 265
ore 265
results 265
series 265
smo@@ 265
success 265
thre@@ 265
visual 265
da 264
foot@@ 264
obser@@ 264
older 264
standing 264
0@@ 263
david 263
dete@@ 263
essentially 263
ession 263
ral 263
regi@@ 263
sing@@ 263
somewhere 263
tat@@ 263
trees 263
vie@@ 263
buildings 262
doctor 262
impossible 262
usually 262
dance 261
electr@@ 261
minds 261
serious 261
ve@@ 261
med 260
mom 260
0-@@ 259
individuals 259
ines 259
spread 259
traditional 259
biology 258
camera 258
ele@@ 258
expensive 258
meaning 258
ming 258
objects 258
sex 258
tically 258
consu@@ 257
eng@@ 257
finding 257
safe 257
und 257
ward 257
200 256
ered 256
ots 256
studies 256
tly 256
african 255
ages 255
ish 255
larger 255
mm@@ 255
models 255
ow@@ 255
taught 255
wed 255
bal@@ 254
higher 254
infe@@ 254
training 254
favorite 253
leaders 253
tively 253
written 253
above 252
architecture 252
bom@@ 252
crisis 252
expect 252
ght 252
goal 252
screen 252
sorts 252
trust 252
cen@@ 251
conditions 251
dent 251
ony 251
sam@@ 251
stars 251
sus@@ 251
tree 251
wife 251
allowed 250
beauty 250
cate 250
complicated 250
production 250
sell 250
shot 250
site 250
arch@@ 249
cover 249
crazy 249
pers 249
plant 249
bacteria 248
belie@@ 248
shown 248
therefore 248
drugs 247
ey 247
pieces 247
seconds 247
square 247
supposed 247
truly 247
drug 246
including 246
income 246
reading 246
sou@@ 246
treatment 246
dat@@ 245
dream 245
families 245
fine 245
fli@@ 245
hon@@ 245
killed 245
refle@@ 245
upon 245
connect 244
conver@@ 244
essi@@ 244
faces 244
fantastic 244
flu@@ 244
healthy 244
ide@@ 244
region 244
touch 244
violence 244
ak@@ 243
communities 243
fight 243
fla@@ 243
provi@@ 243
rel@@ 243
tool 243
ute 243
ama@@ 242
famous 242
fy 242
meant 242
sto@@ 242
thousand 242
ops 241
worse 241
18 240
combin@@ 240
enti@@ 240
faster 240
himself 240
math 240
mechan@@ 240
perspective 240
vation 240
anti@@ 239
fre@@ 239
fundamental 239
kill 239
press 239
response 239
role 239
successful 239
wonder@@ 239
excited 238
lies 238
main@@ 238
struc@@ 238
throughout 238
wat@@ 238
ast 237
bodies 237
cl@@ 237
dist@@ 237
ed@@ 237
kept 237
neuro@@ 237
person@@ 237
sky 237
alive 236
mal 236
military 236
ta 236
ash 235
content 235
down@@ 235
ically 235
inclu@@ 235
physics 235
rele@@ 235
well-@@ 235
western 235
zero 235
gh 234
humanity 234
lon@@ 234
mas@@ 234
sh 234
swi@@ 234
choose 233
context 233
hot 233
pain 233
rise 233
cases 232
exp@@ 232
mag@@ 232
one-@@ 232
pp@@ 232
price 232
range 232
service 232
ton@@ 232
win 232
ak 231
although 231
bunch 231
cle@@ 231
flow 231
freedom 231
neurons 231
zation 231
bul@@ 230
earlier 230
eu@@ 230
resi@@ 230
beings 229
bing 229
cep@@ 229
conven@@ 229
dad 229
demon@@ 229
fore@@ 229
genes 229
ian 229
massive 229
recognize 229
smaller 229
three-@@ 229
familiar 228
machines 228
patterns 228
rights 228
s-@@ 228
tou@@ 228
allows 227
consi@@ 227
policy 227
power@@ 227
skills 227
slow 227
actual 226
aff@@ 226
central 226
contribu@@ 226
del@@ 226
engineering 226
hey 226
song 226
sum@@ 226
thanks 226
vely 226
aid 225
anywhere 225
consider 225
fru@@ 225
gotten 225
hy@@ 225
inst@@ 225
ise 225
listening 225
oc@@ 225
pra@@ 225
shor@@ 225
strange 225
tain 225
after@@ 224
ful@@ 224
human@@ 224
ll 224
record 224
ries 224
ris@@ 224
treat 224
unded 224
ale 223
clearly 223
costs 223
driving 223
liber@@ 223
museum 223
ners 223
progress 223
to-@@ 223
vari@@ 223
waiting 223
waste 223
wel@@ 223
americans 222
greater 222
hea@@ 222
ited 222
pat@@ 222
solutions 222
terri@@ 222
acy 221
decisions 221
dollar 221
fro@@ 221
poin@@ 221
tivity 221
virus 221
concept 220
edi@@ 220
however 220
ils 220
ka@@ 220
o-@@ 220
related 220
ach@@ 219
ant@@ 219
clim@@ 219
current 219
dness 219
invented 219
new@@ 219
president 219
rela@@ 219
tent 219
cated 218
critical 218
increase 218
liter@@ 218
nan@@ 218
ods 218
repres@@ 218
values 218
wonder 218
zes 218
bre@@ 217
clean 217
connection 217
ess@@ 217
extra@@ 217
non@@ 217
respon@@ 217
surgery 217
teaching 217
tor 217
diversity 216
fr@@ 216
intelligence 216
magic 216
provide 216
pull 216
anymore 215
ben@@ 215
cians 215
dangerous 215
effective 215
fis@@ 215
fuel 215
hole 215
john 215
politics 215
print 215
ray 215
robots 215
win@@ 215
argu@@ 214
cycle 214
date 214
dog 214
exist 214
insi@@ 214
nur@@ 214
photograph@@ 214
produ@@ 214
protect 214
st-@@ 214
tin@@ 214
tv 214
two-@@ 214
ands 213
becoming 213
conversation 213
draw 213
ear@@ 213
flying 213
forming 213
fun@@ 213
gic 213
im 213
on-@@ 213
rule 213
train 213
weight 213
cent@@ 212
conference 212
greatest 212
quar@@ 212
religion 212
understood 212
ame 211
ast@@ 211
dge 211
ese 211
legs 211
plastic 211
re-@@ 211
198@@ 210
shu@@ 210
star 210
travel 210
walked 210
zen 210
clin@@ 209
conc@@ 209
direction 209
environmental 209
explor@@ 209
floor 209
forest 209
glass 209
immediately 209
raise 209
remarkable 209
repor@@ 209
whose 209
artist 208
irs 208
lations 208
lower 208
recogni@@ 208
scientist 208
services 208
subject 208
tho@@ 208
babies 207
cha@@ 207
decade 207
disappe@@ 207
hom@@ 207
none 207
practice 207
suff@@ 207
sustainable 207
weren 207
chemical 206
comm@@ 206
docum@@ 206
genetic 206
land@@ 206
pun@@ 206
specific 206
v 206
wers 206
aware 205
forth 205
ft 205
qui@@ 205
slide 205
societies 205
speaking 205
stre@@ 205
website 205
ately 204
conclu@@ 204
fol@@ 204
function 204
la 204
lab@@ 204
original 204
reach@@ 204
television 204
thi@@ 204
unfortunately 204
complete 203
conser@@ 203
creativity 203
dd@@ 203
divi@@ 203
doctors 203
ghts 203
lights 203
mars 203
ration 203
alism 202
enormous 202
forget 202
institutions 202
lands 202
phones 202
private 202
shar@@ 202
sharing 202
tt@@ 202
vic@@ 202
bank 201
feed 201
ial 201
occu@@ 201
path 201
que 201
types 201
ff 200
grade 200
ima@@ 200
networks 200
urban 200
assu@@ 199
birds 199
ets 199
hab@@ 199
lin 199
loved 199
markets 199
passion 199
performance 199
pol@@ 199
produced 199
scri@@ 199
shared 199
temperature 199
70 198
agree 198
ah 198
cold 198
commit@@ 198
evolved 198
following 198
forces 198
histor@@ 198
lat@@ 198
lau@@ 198
ley 198
matically 198
survive 198
sy@@ 198
thetic 198
useful 198
zz@@ 198
90 197
ads 197
boys 197
capit@@ 197
chair 197
directly 197
discover 197
dom@@ 197
fund@@ 197
oni@@ 197
played 197
recent 197
sat 197
stick 197
trade 197
various 197
x-@@ 197
consciousness 196
destro@@ 196
fron@@ 196
glo@@ 196
pit@@ 196
ani@@ 195
bly 195
bringing 195
career 195
experiments 195
fan@@ 195
financial 195
governments 195
helped 195
some@@ 195
summer 195
unique 195
ven 195
ahead 194
aids 194
conflict 194
cour@@ 194
mostly 194
mot@@ 194
mp 194
val@@ 194
appli@@ 193
cher 193
essed 193
hi 193
london 193
meeting 193
near 193
obvious 193
pain@@ 193
photograph 193
psych@@ 193
publi@@ 193
ran 193
stance 193
biological 192
chi@@ 192
cure 192
effects 192
final 192
gene 192
industrial 192
inspired 192
possibly 192
scre@@ 192
term 192
track 192
vac@@ 192
expected 191
net 191
pair 191
police 191
surro@@ 191
thro@@ 191
wir@@ 191
alization 190
arts 190
bought 190
levels 190
park 190
actions 189
ancient 189
dest 189
entation 189
explore 189
funny 189
heat 189
mes@@ 189
moon 189
radi@@ 189
reali@@ 189
sign 189
spe@@ 189
16 188
below 188
bes@@ 188
dig@@ 188
dr. 188
ek 188
eli@@ 188
ham@@ 188
island 188
mel@@ 188
push 188
shi@@ 188
tex@@ 188
ble@@ 187
challenges 187
decision 187
diagno@@ 187
fit 187
indian 187
vol@@ 187
bot@@ 186
classi@@ 186
exten@@ 186
focused 186
ky 186
lan@@ 186
nation 186
search 186
sor@@ 186
spending 186
terrible 186
uring 186
workers 186
afghanistan 185
ased 185
attra@@ 185
bill 185
complexity 185
daughter 185
eating 185
emotional 185
era 185
explo@@ 185
mobile 185
na 185
ologists 185
pris@@ 185
rever@@ 185
sleep 185
sorry 185
vot@@ 185
birth 184
capacity 184
character 184
dy@@ 184
genome 184
laws 184
multi@@ 184
ple 184
rema@@ 184
tac@@ 184
wood 184
$ 183
artists 183
capital 183
causes 183
circu@@ 183
communication 183
decide 183
exi@@ 183
fle@@ 183
ror 183
secret 183
twice 183
balance 182
closer 182
gri@@ 182
instance 182
len@@ 182
year-old 182
chris 181
diseases 181
domin@@ 181
efficient 181
le-@@ 181
leg@@ 181
popular 181
ss 181
ue 181
300 180
ass 180
designers 180
event 180
memory 180
mul@@ 180
ny 180
ological 180
onic 180
plan@@ 180
purpose 180
shed 180
stream 180
task 180
a-@@ 179
audi@@ 179
broken 179
dre@@ 179
etc 179
green@@ 179
quick 179
vering 179
worry 179
break@@ 178
carry 178
dying 178
enting 178
extra 178
kin@@ 178
molecules 178
paid 178
straight 178
tele@@ 178
auto@@ 177
decades 177
ep 177
party 177
pressure 177
temp@@ 177
trial 177
turning 177
yers 177
zo@@ 177
10@@ 176
5,000 176
ca 176
california 176
charge 176
cros@@ 176
infrastructure 176
significant 176
slo@@ 176
spec@@ 176
surprising 176
tle 176
achie@@ 175
agre@@ 175
bits 175
check 175
citizens 175
devices 175
drop 175
ell 175
ency 175
ping 175
sin@@ 175
stances 175
visu@@ 175
,@@ 174
197@@ 174
acting 174
demo@@ 174
descri@@ 174
improve 174
mark 174
ory 174
our@@ 174
published 174
sau@@ 174
sol@@ 174
speci@@ 174
sphere 174
willing 174
accep@@ 173
accu@@ 173
calls 173
collabor@@ 173
dea@@ 173
degrees 173
edge 173
meters 173
pr@@ 173
q@@ 173
slightly 173
10,000 172
coffee 172
crimin@@ 172
differences 172
eding 172
fortun@@ 172
gate 172
glob@@ 172
ken 172
organi@@ 172
pass 172
race 172
rooms 172
soli@@ 172
spa@@ 172
tremendous 172
trouble 172
ular 172
analy@@ 171
atmosphere 171
creates 171
dic@@ 171
educ@@ 171
fying 171
hol@@ 171
tar@@ 171
yer 171
blind 170
dep@@ 170
emer@@ 170
ening 170
hearing 170
illu@@ 170
justice 170
law@@ 170
nations 170
noticed 170
passed 170
sch@@ 170
standard 170
uns 170
worst 170
address 169
asia 169
cious 169
const@@ 169
lets 169
neu@@ 169
ority 169
ours 169
programs 169
rock 169
sla@@ 169
stone 169
suppor@@ 169
arb@@ 168
ath@@ 168
myster@@ 168
responsibility 168
sac@@ 168
supply 168
xi@@ 168
acade@@ 167
apart 167
counter@@ 167
dence 167
ells 167
flies 167
memor@@ 167
oxygen 167
pli@@ 167
repe@@ 167
richard 167
studying 167
answers 166
ards 166
hr@@ 166
low-@@ 166
mountain 166
ous@@ 166
part@@ 166
process@@ 166
radio 166
seemed 166
sely 166
shift 166
techni@@ 166
tory 166
ung@@ 166
window 166
work@@ 166
al-@@ 165
basis 165
communicate 165
corner 165
feels 165
hun@@ 165
imag@@ 165
mat@@ 165
notion 165
sand 165
stration 165
thes@@ 165
total 165
vor@@ 165
ambi@@ 164
arti@@ 164
colleagues 164
frequ@@ 164
meas@@ 164
organisms 164
phenomenon 164
return 164
shel@@ 164
structures 164
wei@@ 164
ables 163
boat 163
civil 163
comfortable 163
condition 163
dimensional 163
helping 163
highly 163
ko@@ 163
lie 163
musli@@ 163
organizations 163
planets 163
-year-old 162
1,000 162
centi@@ 162
giant 162
ha 162
ie@@ 162
nearly 162
ought 162
painting 162
reg@@ 162
religious 162
tissue 162
&apos;@@ 161
apo@@ 161
argument 161
assem@@ 161
benefits 161
bled 161
definition 161
flu 161
kil@@ 161
necessarily 161
possibility 161
rain 161
reduce 161
relationships 161
repli@@ 161
roll@@ 161
sle@@ 161
tab@@ 161
text 161
tially 161
yellow 161
14 160
bil@@ 160
cial 160
corpo@@ 160
easily 160
electric 160
fix 160
flight 160
gor@@ 160
iraq 160
limit@@ 160
particles 160
sym@@ 160
accoun@@ 159
bird 159
bran@@ 159
choices 159
ends 159
fig@@ 159
figured 159
foundation 159
graph 159
gui@@ 159
hair 159
ignor@@ 159
knowing 159
ne 159
pic@@ 159
pose 159
stors 159
attemp@@ 158
dents 158
despite 158
engage 158
fairly 158
fs 158
iled 158
ily 158
lam@@ 158
missing 158
neighb@@ 158
organic 158
plac@@ 158
reve@@ 158
sites 158
xes 158
adi@@ 157
algorith@@ 157
conne@@ 157
consum@@ 157
direc@@ 157
fair 157
finished 157
imagination 157
ink 157
interact 157
ken@@ 157
landscape 157
mur@@ 157
necessary 157
ordin@@ 157
stopped 157
tail 157
architec@@ 156
aspe@@ 156
benefit 156
bridge 156
bub@@ 156
differently 156
held 156
join 156
lucky 156
lying 156
mming 156
ples 156
pounds 156
profit 156
tas@@ 156
achieve 155
ance@@ 155
bt 155
communic@@ 155
diver@@ 155
effort 155
expec@@ 155
gical 155
inner 155
ists 155
mani@@ 155
nel 155
nutri@@ 155
opportunities 155
scen@@ 155
stron@@ 155
ultimately 155
1.@@ 154
adop@@ 154
antly 154
bread 154
brings 154
core 154
cou@@ 154
farmers 154
gol@@ 154
leading 154
load 154
members 154
passionate 154
prize 154
puts 154
respect 154
saving 154
tations 154
tter@@ 154
apply 153
attack 153
cas@@ 153
cle 153
fur@@ 153
hero@@ 153
ina 153
japan 153
meter 153
mini@@ 153
mix@@ 153
mr. 153
noise 153
prison 153
pus@@ 153
river 153
russi@@ 153
symme@@ 153
tal@@ 153
wee@@ 153
bers 152
bone 152
conscious 152
custom@@ 152
designer 152
engine 152
extin@@ 152
foreign 152
hopefully 152
invol@@ 152
moments 152
moves 152
negative 152
ong 152
oth 152
professor 152
sculp@@ 152
tech 152
tom 152
1,@@ 151
15@@ 151
bility 151
cell@@ 151
covered 151
electro@@ 151
engineers 151
enter 151
fighting 151
helps 151
instru@@ 151
leads 151
ologist 151
pollu@@ 151
ra 151
ring 151
alize 150
appreci@@ 150
cir@@ 150
concent@@ 150
elements 150
extreme 150
influence 150
iran 150
journ@@ 150
jun@@ 150
logi@@ 150
operation 150
quote 150
resol@@ 150
stem 150
suffering 150
tan 150
thir@@ 150
throw 150
visit 150
walls 150
wan@@ 150
13 149
ank 149
bla@@ 149
bling 149
coast 149
compar@@ 149
contra@@ 149
degree 149
deser@@ 149
emotions 149
fashion 149
fold 149
lesson 149
nar@@ 149
not@@ 149
puzz@@ 149
raised 149
recei@@ 149
shares 149
ten 149
arian 148
calcu@@ 148
carto@@ 148
competition 148
compu@@ 148
discovery 148
ep@@ 148
expla@@ 148
facebook 148
fields 148
forever 148
french 148
ght@@ 148
ior 148
loss 148
plo@@ 148
rou@@ 148
thy 148
tial 148
trained 148
wer@@ 148
brilliant 147
british 147
distance 147
evol@@ 147
female 147
gene@@ 147
hum@@ 147
laun@@ 147
mathematics 147
mc@@ 147
mothers 147
operating 147
profound 147
report 147
sick 147
streets 147
tures 147
adap@@ 146
billions 146
calcul@@ 146
cide 146
colors 146
compli@@ 146
contro@@ 146
creatures 146
easier 146
emplo@@ 146
engineer 146
ering 146
holding 146
promise 146
responsible 146
san 146
sity 146
slowly 146
supp@@ 146
titude 146
traffic 146
tured 146
typical 146
unt 146
van@@ 146
virtual 146
whi@@ 146
wild 146
wisdom 146
afford 145
attac@@ 145
bac@@ 145
bees 145
begins 145
capable 145
circle 145
constru@@ 145
defen@@ 145
fill 145
identity 145
ine@@ 145
legal 145
mouse 145
rain@@ 145
sister 145
station 145
steps 145
afraid 144
base 144
count 144
creation 144
fascinating 144
filled 144
gradu@@ 144
high@@ 144
matters 144
modi@@ 144
note 144
pengu@@ 144
respond 144
sector 144
see@@ 144
seriously 144
sold 144
aci@@ 143
breast 143
concep@@ 143
dolph@@ 143
ear 143
events 143
facili@@ 143
gun 143
hei@@ 143
measu@@ 143
motion 143
powered 143
vement 143
addi@@ 142
agriculture 142
aling 142
block 142
brother 142
campaign 142
func@@ 142
hel@@ 142
importantly 142
kee@@ 142
las@@ 142
rein@@ 142
speech 142
statistics 142
vast 142
196@@ 141
24 141
activ@@ 141
adults 141
ales 141
app@@ 141
card 141
caught 141
compe@@ 141
consumption 141
describe 141
entirely 141
experiences 141
heads 141
impli@@ 141
inci@@ 141
mates 141
occur@@ 141
offer 141
placed 141
predict 141
professional 141
rop@@ 141
simpli@@ 141
tting 141
cele@@ 140
embra@@ 140
everyday 140
fication 140
ght-@@ 140
gras@@ 140
impres@@ 140
invest 140
investment 140
j 140
log@@ 140
meat 140
peri@@ 140
shouldn 140
studied 140
transform 140
virtu@@ 140
wide 140
400 139
according 139
allo@@ 139
comp@@ 139
desert 139
factory 139
fal@@ 139
hat@@ 139
in-@@ 139
inno@@ 139
opposite 139
principles 139
reser@@ 139
suit 139
u.k. 139
acceler@@ 138
and-@@ 138
argue 138
catch 138
ception 138
challen@@ 138
cheap 138
cont@@ 138
crime 138
deeply 138
economics 138
expres@@ 138
galaxy 138
hed 138
intelligent 138
ishing 138
labor 138
languages 138
leaving 138
link 138
normally 138
otherwise 138
perfectly 138
photo 138
port 138
prof@@ 138
quie@@ 138
shop 138
theater 138
ves@@ 138
wave 138
17 137
agen@@ 137
arms 137
atta@@ 137
determin@@ 137
dry 137
equal 137
infin@@ 137
invest@@ 137
invisible 137
lack 137
milli@@ 137
rid 137
ried 137
spon@@ 137
stuck 137
vor 137
airplane 136
bab@@ 136
constantly 136
depression 136
distribu@@ 136
enjoy 136
ference 136
gos 136
insects 136
ites 136
limited 136
opened 136
reas@@ 136
secon@@ 136
separ@@ 136
sis 136
small@@ 136
soil 136
spirit 136
th-@@ 136
therapy 136
ur 136
arc@@ 135
article 135
belief 135
childhood 135
deliver 135
dem@@ 135
dom 135
due 135
happ@@ 135
horri@@ 135
intervie@@ 135
magazine 135
molecule 135
monit@@ 135
nam@@ 135
posi@@ 135
sequence 135
tom@@ 135
val 135
warming 135
washington 135
wear 135
background 134
bus@@ 134
co2 134
commercial 134
desire 134
driven 134
gentle@@ 134
identi@@ 134
kl@@ 134
lic 134
mexico 134
ories 134
paint 134
principle 134
separate 134
sudden 134
survival 134
worl@@ 134
wow 134
beat 133
believed 133
civilization 133
damage 133
designing 133
disco@@ 133
dreams 133
dynamic 133
fif@@ 133
hate 133
invi@@ 133
ite 133
majority 133
oceans 133
ph 133
speak@@ 133
spre@@ 133
spring 133
thinks 133
toward 133
tumor 133
200@@ 132
ace 132
care@@ 132
concerned 132
european 132
evil 132
exper@@ 132
fourth 132
gation 132
home@@ 132
independent 132
jump 132
keeping 132
obs@@ 132
opening 132
opini@@ 132
paul 132
philosop@@ 132
plus 132
protein 132
prototyp@@ 132
spaces 132
subje@@ 132
sum 132
tomorrow 132
transpor@@ 132
ty@@ 132
2,000 131
brand 131
cham@@ 131
dinner 131
fellow 131
israel 131
jum@@ 131
ka 131
mouth 131
musi@@ 131
oli@@ 131
organized 131
pages 131
sar@@ 131
strate 131
sy 131
viruses 131
volunte@@ 131
wealth 131
whenever 131
whom 131
yesterday 131
atures 130
ct@@ 130
currently 130
define 130
generate 130
habit@@ 130
heli@@ 130
hidden 130
institute 130
plane 130
prevent 130
prob@@ 130
robo@@ 130
shif@@ 130
tis@@ 130
unless 130
wil@@ 130
advantage 129
approach@@ 129
bles 129
cers 129
charles 129
classroom 129
cognitive 129
color@@ 129
compared 129
connec@@ 129
continent 129
electrical 129
end@@ 129
followed 129
gas@@ 129
graduate 129
gry 129
husband 129
ills 129
increasingly 129
interaction 129
jud@@ 129
letter 129
male 129
metaphor 129
optimi@@ 129
photos 129
rural 129
sensor@@ 129
sm@@ 129
treated 129
wearing 129
ams 128
bear 128
blu@@ 128
businesses 128
caused 128
church 128
circum@@ 128
cis@@ 128
cular 128
dimensions 128
drawing 128
failure 128
finger 128
gain 128
investi@@ 128
managed 128
narra@@ 128
ol 128
ordinary 128
plu@@ 128
roll 128
secre@@ 128
tough 128
tural 128
urs 128
ury 128
ading 127
alle@@ 127
bar 127
compare 127
corruption 127
distribution 127
duc@@ 127
holes 127
hur@@ 127
multiple 127
muscle 127
pher@@ 127
practic@@ 127
roman@@ 127
succe@@ 127
worried 127
affect 126
appear 126
blin@@ 126
c. 126
collective 126
construction 126
dies 126
ert 126
ery 126
exhi@@ 126
exists 126
explan@@ 126
farm 126
gather@@ 126
gon@@ 126
interven@@ 126
invited 126
mus@@ 126
participa@@ 126
pathy 126
represent 126
spac@@ 126
surprise 126
tens 126
unding 126
apple 125
debate 125
facts 125
failed 125
galaxies 125
hell 125
match 125
producing 125
proud 125
rob@@ 125
shapes 125
signal 125
suppose 125
threat 125
transpar@@ 125
versus 125
vice 125
voices 125
vote 125
wake 125
worldwide 125
actor 124
artificial 124
consequences 124
cortex 124
di 124
equivalent 124
experts 124
harder 124
hing 124
houses 124
hyper@@ 124
keys 124
malaria 124
microscop@@ 124
pleasure 124
universal 124
weapons 124
weather 124
weird 124
ach 123
bed@@ 123
britain 123
chemistry 123
cloud 123
discipl@@ 123
email 123
entreprene@@ 123
gan@@ 123
generations 123
gran@@ 123
heal@@ 123
imm@@ 123
incre@@ 123
int 123
ish@@ 123
leader 123
lunch 123
names 123
negoti@@ 123
oned 123
paying 123
percei@@ 123
ple@@ 123
preser@@ 123
proje@@ 123
red@@ 123
scan@@ 123
thri@@ 123
toi@@ 123
transl@@ 123
ts@@ 123
tter 123
vege@@ 123
wr@@ 123
45 122
ack 122
acts 122
cans 122
cer 122
characteri@@ 122
described 122
emerging 122
expression 122
grandmother 122
graph@@ 122
grown 122
highest 122
honest 122
ii 122
japanese 122
leadership 122
losing 122
mid@@ 122
offi@@ 122
planning 122
promis@@ 122
random 122
stands 122
survi@@ 122
thesis 122
vehicle 122
20th 121
activi@@ 121
alists 121
associated 121
camp 121
chap@@ 121
contr@@ 121
direct 121
fell 121
friend@@ 121
ge-@@ 121
geni@@ 121
heavy 121
influ@@ 121
joy 121
kan@@ 121
lim@@ 121
mentioned 121
mile 121
mortality 121
partici@@ 121
progra@@ 121
seas@@ 121
stran@@ 121
strategy 121
waves 121
wea@@ 121
army 120
christ@@ 120
copy 120
dest@@ 120
detail 120
ene@@ 120
free@@ 120
hasn 120
isi@@ 120
leaves 120
married 120
ough 120
rational 120
section 120
shoes 120
signals 120
simul@@ 120
smell 120
spot 120
ution 120
va 120
wit@@ 120
affected 119
anima@@ 119
australia 119
chemicals 119
closed 119
coal 119
collect 119
depres@@ 119
develop@@ 119
dinosaurs 119
feelings 119
george 119
ham 119
hypo@@ 119
pes 119
rates 119
roughly 119
sever@@ 119
sl@@ 119
tam@@ 119
tles 119
tran@@ 119
vable 119
ze@@ 119
zer@@ 119
abilities 118
appro@@ 118
aring 118
brown 118
celebra@@ 118
co 118
details 118
eleph@@ 118
essential 118
four@@ 118
garden 118
gen 118
hin@@ 118
library 118
pet 118
pon@@ 118
remote 118
seat 118
selling 118
soldiers 118
steel 118
surprised 118
violent 118
100,000 117
abstra@@ 117
accident 117
appar@@ 117
budget 117
canada 117
colum@@ 117
contact 117
coral 117
dan 117
dealing 117
din@@ 117
dio@@ 117
dp 117
einstein 117
ements 117
emotion 117
england 117
fall@@ 117
fix@@ 117
lady 117
layer 117
letters 117
michael 117
minister 117
mista@@ 117
nei@@ 117
neighborhood 117
northern 117
practical 117
qua@@ 117
rus@@ 117
tin 117
union 117
valley 117
yle 117
12@@ 116
35 116
announ@@ 116
bit@@ 116
bright 116
chain 116
cially 116
embar@@ 116
forced 116
inte@@ 116
interface 116
leg 116
meaning@@ 116
nant 116
nervous 116
orig@@ 116
path@@ 116
phil@@ 116
proce@@ 116
regular 116
resource 116
sexual 116
stics 116
studio 116
teeth 116
wine 116
wri@@ 116
zon 116
amp 115
avoid 115
broad@@ 115
conf@@ 115
disaster 115
equipment 115
ero@@ 115
fat 115
graphic 115
importance 115
intellectual 115
lec@@ 115
lessons 115
maker 115
molecular 115
poor@@ 115
pre-@@ 115
quali@@ 115
rock@@ 115
sna@@ 115
spoke 115
stac@@ 115
stro@@ 115
sub-@@ 115
technical 115
boo@@ 114
categ@@ 114
clinical 114
clou@@ 114
condu@@ 114
cultures 114
encoura@@ 114
feedback 114
glam@@ 114
hadn 114
ir 114
kenya 114
kilometers 114
ly@@ 114
mathematical 114
metal 114
motiv@@ 114
movies 114
oning 114
operate 114
orders 114
pil@@ 114
researchers 114
ritual 114
sele@@ 114
sen 114
shall 114
sight 114
skelet@@ 114
status 114
sty 114
trip 114
van 114
absolute 113
addition 113
democratic 113
double 113
emergen@@ 113
ests 113
gal@@ 113
gold 113
hall 113
homes 113
ize 113
jer@@ 113
killing 113
management 113
mod@@ 113
newspaper 113
play@@ 113
player 113
preg@@ 113
sad 113
shoul@@ 113
smar@@ 113
solved 113
son@@ 113
spectrum 113
stood 113
thoughts 113
users 113
whereas 113
17@@ 112
alternative 112
ana 112
arrived 112
awful 112
bin@@ 112
bus 112
controll@@ 112
ctor 112
daily 112
demand 112
department 112
drink 112
edu@@ 112
empty 112
ere 112
fundament@@ 112
illness 112
ingu@@ 112
inti@@ 112
life@@ 112
master 112
nigeria 112
occasi@@ 112
open-@@ 112
organs 112
prove 112
reci@@ 112
round 112
sources 112
tch 112
thers 112
tox@@ 112
trials 112
trilli@@ 112
-up 111
150 111
anti-@@ 111
aries 111
ath 111
ba 111
curious 111
de-@@ 111
deeper 111
effectively 111
efully 111
elling 111
enjo@@ 111
exchange 111
gely 111
gli@@ 111
intui@@ 111
ison 111
launched 111
long-term 111
mix 111
od 111
oral 111
perception 111
radical 111
reaction 111
relevant 111
requi@@ 111
saved 111
sharks 111
testing 111
thomas 111
transition 111
visi@@ 111
warm 111
wire 111
21@@ 110
account 110
adult 110
advan@@ 110
chr@@ 110
considered 110
controlled 110
convince 110
establi@@ 110
experienced 110
faith 110
finish 110
flat 110
frank@@ 110
gam@@ 110
gling 110
gravity 110
insu@@ 110
intern@@ 110
james 110
los 110
makers 110
mountains 110
partner 110
phi@@ 110
possibilities 110
ption 110
restaurant 110
scene 110
suggests 110
transformation 110
underneath 110
3d 109
99 109
advanced 109
angle 109
art@@ 109
butt@@ 109
by@@ 109
cape 109
characters 109
chicken 109
cil 109
definitely 109
diam@@ 109
diet 109
epidemic 109
f-@@ 109
facing 109
fail 109
fossil 109
hero 109
horse 109
increasing 109
inning 109
jac@@ 109
kno@@ 109
ogra@@ 109
ols 109
ome 109
post-@@ 109
productive 109
property 109
ressed 109
roots 109
satis@@ 109
setting 109
specifically 109
spir@@ 109
target 109
ug@@ 109
via 109
wars 109
ade 108
analysis 108
awareness 108
birth@@ 108
breath 108
calling 108
click 108
connections 108
distin@@ 108
ef@@ 108
evolutionary 108
folks 108
gift 108
grand 108
honor 108
magnetic 108
marine 108
mented 108
nasa 108
pole 108
portra@@ 108
previous 108
privi@@ 108
protection 108
reme@@ 108
respe@@ 108
ships 108
shir@@ 108
sides 108
struggle 108
sugar 108
suggest@@ 108
tane@@ 108
theme 108
unds 108
valuable 108
variety 108
wra@@ 108
yl@@ 108
aled 107
aming 107
ate@@ 107
atory 107
breaking 107
cards 107
civili@@ 107
dding 107
emissions 107
explains 107
fewer 107
islam@@ 107
kar@@ 107
miss 107
ologi@@ 107
osity 107
phan@@ 107
primary 107
prime 107
ras@@ 107
stable 107
tradi@@ 107
wings 107
2008 106
beach 106
bee@@ 106
broke 106
buying 106
clock 106
conduc@@ 106
coura@@ 106
craft 106
dogs 106
dots 106
ecosystem 106
express 106
fail@@ 106
fishing 106
fresh 106
guar@@ 106
identify 106
kitchen 106
lifetime 106
mention 106
platform 106
prepared 106
radiation 106
relatively 106
silk 106
spli@@ 106
tradition 106
villa@@ 106
vin@@ 106
zi@@ 106
ans@@ 105
axis 105
bang 105
battery 105
bine 105
bru@@ 105
cky 105
clas@@ 105
credit 105
cross 105
driver 105
efficiency 105
employees 105
existence 105
gles 105
goals 105
introduced 105
marketing 105
method 105
nor 105
paraly@@ 105
players 105
plays 105
require 105
scot@@ 105
spor@@ 105
stock 105
tons 105
tt 105
ush 105
videos 105
vulnerable 105
zone 105
aded 104
admini@@ 104
amed 104
ballo@@ 104
brothers 104
bush 104
cents 104
chri@@ 104
cker 104
convinced 104
darwin 104
defined 104
ember 104
fund 104
generally 104
govern@@ 104
hig@@ 104
ination 104
invention 104
maps 104
notes 104
picked 104
pig@@ 104
planes 104
pleas@@ 104
religi@@ 104
stupid 104
suggest 104
techniques 104
twitter 104
typically 104
windows 104
3,000 103
accept 103
adverti@@ 103
affec@@ 103
amo@@ 103
battle 103
boundar@@ 103
chimpanze@@ 103
computing 103
dent@@ 103
deter@@ 103
exercise 103
factor 103
frame@@ 103
gap 103
hot@@ 103
ight 103
intri@@ 103
kers 103
ladies 103
laptop 103
liquid 103
lock 103
marriage 103
patent 103
photographs 103
properties 103
pulled 103
rapi@@ 103
remin@@ 103
rene@@ 103
represents 103
roads 103
safety 103
sequ@@ 103
sets 103
stry 103
swim 103
than@@ 103
winter 103
- 102
195@@ 102
ack@@ 102
af@@ 102
anding 102
architect 102
artic@@ 102
behaviors 102
brazil 102
cooking 102
dynam@@ 102
fire@@ 102
former 102
gay 102
germany 102
iden@@ 102
mira@@ 102
motor 102
ord@@ 102
processes 102
received 102
reli@@ 102
reward 102
serve 102
soci@@ 102
switch 102
ternal 102
writer 102
600 101
alist 101
arab 101
astronom@@ 101
aten 101
atom@@ 101
atri@@ 101
blocks 101
collapse 101
components 101
destruction 101
discussion 101
eastern 101
environments 101
exploration 101
graphi@@ 101
hard@@ 101
ingre@@ 101
inse@@ 101
liked 101
mol@@ 101
nat@@ 101
pacific 101
poetry 101
proteins 101
que@@ 101
rect 101
replace 101
rup@@ 101
sending 101
sett@@ 101
stru@@ 101
tests 101
trage@@ 101
tries 101
unlike 101
volu@@ 101
afri@@ 100
atlan@@ 100
berg 100
bia 100
centers 100
contin@@ 100
crash 100
cry 100
curi@@ 100
gest@@ 100
goods 100
harvard 100
hit@@ 100
iling 100
industri@@ 100
ished 100
manage 100
onal 100
pin@@ 100
politicians 100
psychology 100
requires 100
reven@@ 100
sentence 100
steve 100
strated 100
unusual 100
watched 100
wired 100
applied 99
asks 99
bottle 99
buil@@ 99
carrying 99
cational 99
collaboration 99
confidence 99
ctors 99
dered 99
director 99
drin@@ 99
earth@@ 99
eff@@ 99
encourage 99
ft@@ 99
gressi@@ 99
hes 99
inevi@@ 99
jan@@ 99
lay 99
need@@ 99
piano 99
risks 99
roof 99
sages 99
sensitive 99
sophisticated 99
southern 99
tains 99
technological 99
trick 99
unts 99
wash@@ 99
wise 99
0 98
appropriate 98
arri@@ 98
associ@@ 98
ball@@ 98
burning 98
ckets 98
coo@@ 98
dow 98
five-@@ 98
frame 98
grid 98
hits 98
ili@@ 98
introduce 98
laboratory 98
laugh@@ 98
location 98
mathemati@@ 98
member 98
mirror 98
mistake 98
movements 98
naturally 98
noon 98
paradig@@ 98
percentage 98
phenomen@@ 98
quanti@@ 98
rand@@ 98
rare 98
redu@@ 98
resear@@ 98
ride 98
rus 98
satellite 98
sky@@ 98
smile 98
solving 98
strength 98
string 98
style 98
surgeon 98
sustain@@ 98
tables 98
teri@@ 98
terror@@ 98
treat@@ 98
ums 98
unit 98
visible 98
who@@ 98
wid@@ 98
wikipedia 98
ai@@ 97
arab@@ 97
autonom@@ 97
aw@@ 97
cab@@ 97
cutting 97
ferti@@ 97
gover@@ 97
gulf 97
holds 97
house@@ 97
islam 97
licen@@ 97
medium 97
mr@@ 97
nity 97
novel 97
orche@@ 97
paint@@ 97
pants 97
peak 97
personally 97
reti@@ 97
sex@@ 97
situations 97
the-@@ 97
thin@@ 97
traveling 97
verage 97
virg@@ 97
00@@ 96
atoms 96
behavi@@ 96
deci@@ 96
eco@@ 96
eller 96
francisco 96
healthcare 96
hospitals 96
hydrogen 96
isol@@ 96
manufacturing 96
musical 96
obje@@ 96
of-@@ 96
predat@@ 96
raising 96
temporary 96
2000 95
2007 95
75 95
arily 95
bel 95
blan@@ 95
burn 95
capture 95
cau@@ 95
caus@@ 95
colli@@ 95
comfort 95
crowd 95
display 95
eland 95
exam@@ 95
fascin@@ 95
goo@@ 95
hil@@ 95
l-@@ 95
mas 95
open@@ 95
sees 95
sper@@ 95
story@@ 95
taste 95
tual 95
u.n. 95
user 95
acci@@ 94
ami 94
band 94
bet 94
crow@@ 94
ecu@@ 94
fran@@ 94
gest 94
hotel 94
hurt 94
ids 94
innovative 94
integr@@ 94
key@@ 94
macy 94
mand@@ 94
mush@@ 94
nin@@ 94
pop 94
sav@@ 94
sir 94
sor 94
stu@@ 94
syste@@ 94
tainment 94
ulti@@ 94
ameras 93
aro@@ 93
bay 93
gress 93
harv@@ 93
inspi@@ 93
inspiration 93
instrument 93
lou@@ 93
milk 93
post 93
quant@@ 93
relative 93
robert 93
spr@@ 93
staf@@ 93
tracking 93
twi@@ 93
xide 93
absor@@ 92
blog 92
bo 92
cast 92
competi@@ 92
dur@@ 92
element 92
mad 92
passi@@ 92
phr@@ 92
poten@@ 92
ress 92
simil@@ 92
swa@@ 92
tate 92
unger 92
wher@@ 92
youtube 92
za@@ 92
comple@@ 91
confli@@ 91
dam@@ 91
dir@@ 91
falls 91
fit@@ 91
flexi@@ 91
gy@@ 91
inf@@ 91
pollen 91
propor@@ 91
six@@ 91
stan@@ 91
susta@@ 91
tim 91
ware 91
astero@@ 90
enga@@ 90
fabri@@ 90
increas@@ 90
iting 90
lifest@@ 90
pay@@ 90
post@@ 90
queen 90
recycl@@ 90
stress 90
stun@@ 90
upp@@ 90
was@@ 90
water@@ 90
web@@ 90
yo 90
assi@@ 89
gla@@ 89
less@@ 89
nap@@ 89
option 89
pakistan 89
perman@@ 89
plans 89
tribu@@ 89
ual 89
2010 88
d. 88
foc@@ 88
institution 88
opp@@ 88
origin@@ 88
polio 88
resili@@ 88
restri@@ 88
sal 88
stand@@ 88
vehi@@ 88
2.@@ 87
ada@@ 87
atten@@ 87
aug@@ 87
bag@@ 87
black@@ 87
cool@@ 87
discus@@ 87
fau@@ 87
inje@@ 87
king@@ 87
metho@@ 87
navi@@ 87
pack 87
phili@@ 87
rab@@ 87
rat@@ 87
scrat@@ 87
success@@ 87
survey 87
thin 87
tile 87
toler@@ 87
tube 87
anth@@ 86
bert 86
bin 86
designs 86
elec@@ 86
esses 86
mean@@ 86
port@@ 86
sa 86
strug@@ 86
teams 86
thou@@ 86
tili@@ 86
ya 86
16@@ 85
aller@@ 85
compon@@ 85
ford 85
form@@ 85
hydro@@ 85
ium 85
nose 85
partner@@ 85
proto@@ 85
rhyth@@ 85
sand@@ 85
stian 85
ti 85
tie 85
trin@@ 85
tw@@ 85
alt 84
blog@@ 84
chil@@ 84
clip 84
dor@@ 84
hood 84
ier 84
imple@@ 84
ing-@@ 84
inn@@ 84
obama 84
oud 84
prepar@@ 84
sahar@@ 84
scop@@ 84
spar@@ 84
stant 84
ye 84
archi@@ 83
automo@@ 83
ay 83
band@@ 83
che 83
co-@@ 83
ee@@ 83
epi@@ 83
fing@@ 83
gender 83
oles@@ 83
organ 83
philosoph@@ 83
repu@@ 83
roo@@ 83
scan 83
september 83
sign@@ 83
telescope 83
trend 83
une 83
wes@@ 83
ang@@ 82
ania 82
appl@@ 82
chicago 82
diagra@@ 82
ela 82
elimin@@ 82
entrepr@@ 82
gates 82
gration 82
haiti 82
so-@@ 82
tz@@ 82
uss 82
ai 81
ain 81
budd@@ 81
certain@@ 81
consequ@@ 81
curr@@ 81
er-@@ 81
exponenti@@ 81
films 81
great@@ 81
instin@@ 81
interpre@@ 81
mom@@ 81
multi-@@ 81
partic@@ 81
tee 81
ank@@ 80
bene@@ 80
boston 80
essen@@ 80
genom@@ 80
gment 80
hell@@ 80
m. 80
net@@ 80
poly@@ 80
songs 80
tem@@ 80
yn@@ 80
14@@ 79
2005 79
21 79
cyber@@ 79
dney 79
dun@@ 79
ern 79
fan 79
feder@@ 79
glas@@ 79
hen@@ 79
ker@@ 79
lung 79
manufac@@ 79
p-@@ 79
pharma@@ 79
rich@@ 79
sci@@ 79
sticks 79
sue 79
uns@@ 79
brow@@ 78
bun@@ 78
ever@@ 78
input 78
iphone 78
kill@@ 78
organis@@ 78
paris 78
phase 78
regu@@ 78
scho@@ 78
simpl@@ 78
soft 78
som@@ 78
spin@@ 78
standards 78
stent 78
travel@@ 78
wand@@ 78
you@@ 78
adam 77
ager 77
chip 77
ern@@ 77
fab@@ 77
interest@@ 77
kni@@ 77
nel@@ 77
pen 77
pyrami@@ 77
retro@@ 77
spra@@ 77
surpris@@ 77
symptom@@ 77
year-@@ 77
2009 76
any@@ 76
bacteri@@ 76
cock@@ 76
collap@@ 76
commun@@ 76
dop@@ 76
hill 76
illegal 76
ims 76
interview 76
ki 76
kins 76
korea 76
lot@@ 76
moder@@ 76
one@@ 76
ord 76
origami 76
pel@@ 76
photo@@ 76
relation 76
ser 76
statisti@@ 76
tour 76
ually 76
angel@@ 75
autis@@ 75
bat 75
crea@@ 75
dh 75
follo@@ 75
gps 75
grab 75
ku@@ 75
mili@@ 75
mon 75
real@@ 75
rhe@@ 75
stimul@@ 75
tes@@ 75
uganda 75
wol@@ 75
19 74
amin@@ 74
gent 74
genu@@ 74
got@@ 74
indu@@ 74
nets 74
ney 74
proper@@ 74
stit@@ 74
strategi@@ 74
tag 74
tag@@ 74
texas 74
theor@@ 74
tricks 74
umin@@ 74
vulner@@ 74
wis@@ 74
95 73
add@@ 73
bell 73
citi@@ 73
clever 73
club 73
fel@@ 73
frank 73
hunger 73
market@@ 73
olymp@@ 73
ota 73
partment 73
peter 73
prop@@ 73
refer@@ 73
vered 73
2004 72
27 72
agenda 72
an-@@ 72
anda 72
deta@@ 72
dru@@ 72
experim@@ 72
illusion 72
journalist 72
manipu@@ 72
meetings 72
nee 72
nest 72
neuron 72
popu@@ 72
psychi@@ 72
sensi@@ 72
sent@@ 72
stanford 72
symbol 72
tus 72
woo@@ 72
yn 72
00 71
65 71
ald 71
aper 71
attle 71
bi 71
brief 71
dama@@ 71
defin@@ 71
duced 71
forma@@ 71
fusion 71
gall@@ 71
ket 71
les@@ 71
ome@@ 71
orbit 71
pad 71
pool 71
stly 71
thr@@ 71
transi@@ 71
usual 71
zz 71
22 70
ar-@@ 70
arly 70
ax@@ 70
bf 70
bud@@ 70
cel@@ 70
commer@@ 70
derek 70
distri@@ 70
gery 70
indepen@@ 70
isra@@ 70
ji@@ 70
links 70
long-@@ 70
motivation 70
n-@@ 70
olo@@ 70
pilot 70
plasti@@ 70
profession@@ 70
requ@@ 70
sage 70
tely 70
tis 70
zations 70
zer 70
agri@@ 69
ben 69
bow@@ 69
chaos 69
disc@@ 69
eping 69
fam@@ 69
frag@@ 69
gent@@ 69
hau@@ 69
migr@@ 69
nation@@ 69
orange 69
pa 69
rier 69
super 69
talent 69
turing 69
vy 69
what@@ 69
willi@@ 69
anthropo@@ 68
bis@@ 68
bol@@ 68
cher@@ 68
chromo@@ 68
deep@@ 68
eric 68
favor@@ 68
film@@ 68
foun@@ 68
gang 68
ghana 68
humor 68
innova@@ 68
lege 68
manhattan 68
mess@@ 68
silicon 68
sion@@ 68
compan@@ 67
diff@@ 67
elegan@@ 67
experiment@@ 67
fic 67
janu@@ 67
martin 67
nia 67
op 67
pus 67
reson@@ 67
usi@@ 67
verse 67
194@@ 66
2003 66
ange@@ 66
angeles 66
bby 66
diplo@@ 66
engagement 66
expan@@ 66
fortunately 66
golf 66
iel 66
ograph@@ 66
revol@@ 66
saturn 66
ski@@ 66
sty@@ 66
sw 66
tain@@ 66
transforma@@ 66
trou@@ 66
tude 66
vagina 66
viol@@ 66
wild@@ 66
.com 65
40@@ 65
class@@ 65
dam 65
diabetes 65
elt 65
expen@@ 65
geographic 65
grab@@ 65
hang 65
jack 65
juli@@ 65
microsoft 65
oxford 65
pati@@ 65
skep@@ 65
tiv@@ 65
transport 65
vo 65
weal@@ 65
23 64
anony@@ 64
brie@@ 64
enced 64
ene 64
filter 64
gand@@ 64
hall@@ 64
han 64
k-@@ 64
legi@@ 64
mary 64
moment@@ 64
sation 64
stam@@ 64
stere@@ 64
trau@@ 64
var@@ 64
viet@@ 64
2006 63
alzheimer 63
cise 63
dialo@@ 63
dimension 63
dinosau@@ 63
ette 63
fe 63
mir@@ 63
nes@@ 63
phosp@@ 63
republi@@ 63
sandwi@@ 63
sel 63
syl@@ 63
text@@ 63
univer@@ 63
vas@@ 63
wa 63
zens 63
26 62
alien 62
astro@@ 62
consci@@ 62
danger@@ 62
dig 62
expedi@@ 62
gst 62
harmon@@ 62
hollywood 62
mail 62
oms 62
plat@@ 62
ultra@@ 62
vels 62
ville 62
athei@@ 61
cambridge 61
confi@@ 61
cous@@ 61
democra@@ 61
geno@@ 61
ib@@ 61
intro@@ 61
listen@@ 61
mo 61
nai@@ 61
parado@@ 61
pir@@ 61
poster 61
rely 61
teena@@ 61
trends 61
13@@ 60
2001 60
250 60
are@@ 60
astrop@@ 60
base@@ 60
element@@ 60
florida 60
fres@@ 60
hn@@ 60
instal@@ 60
jon@@ 60
lear@@ 60
lee 60
may@@ 60
neighbor@@ 60
pan 60
pho@@ 60
pon 60
psycho@@ 60
questi@@ 60
rio 60
sequen@@ 60
spee@@ 60
stimu@@ 60
tenden@@ 60
transp@@ 60
1960 59
alex@@ 59
ater 59
blogs 59
brian 59
collea@@ 59
dau@@ 59
geogra@@ 59
hori@@ 59
howard 59
kel@@ 59
kor@@ 59
og@@ 59
sport 59
sugge@@ 59
tax@@ 59
theore@@ 59
tz 59
vio@@ 59
32 58
ah@@ 58
andre@@ 58
bronx 58
decisi@@ 58
differ@@ 58
diffic@@ 58
ghter 58
gore 58
gut 58
haw@@ 58
immedi@@ 58
initiative 58
institu@@ 58
itali@@ 58
ko 58
mote 58
nifi@@ 58
patri@@ 58
priv@@ 58
quot@@ 58
s. 58
schizophren@@ 58
sey 58
steven 58
teen@@ 58
tony 58
vil 58
25@@ 57
800 57
analog@@ 57
angiogen@@ 57
bizar@@ 57
chol@@ 57
cin 57
condi@@ 57
enth@@ 57
gan 57
gir@@ 57
ices 57
kit@@ 57
matri@@ 57
mem@@ 57
mm 57
mode 57
optimis@@ 57
pump@@ 57
surge@@ 57
temper@@ 57
tober 57
tour@@ 57
tumor@@ 57
verb@@ 57
whit@@ 57
with@@ 57
zu@@ 57
anderth@@ 56
au 56
coll@@ 56
dation 56
dia 56
expe@@ 56
fi 56
henry 56
jesus 56
kb 56
kon@@ 56
lux@@ 56
mous 56
primi@@ 56
sop@@ 56
tsun@@ 56
za 56
é@@ 56
50@@ 55
700 55
abra@@ 55
biolog@@ 55
choo@@ 55
d.@@ 55
fair@@ 55
febru@@ 55
ghtly 55
hai 55
hier@@ 55
inde@@ 55
intuition 55
jim 55
kev@@ 55
mammo@@ 55
mption 55
ren 55
ri 55
run@@ 55
rying 55
sher@@ 55
smith 55
syndro@@ 55
versi@@ 55
193@@ 54
85 54
alli@@ 54
ander 54
antibio@@ 54
ardo 54
bak@@ 54
bedro@@ 54
boun@@ 54
cei@@ 54
eness 54
explosion 54
geor@@ 54
hallu@@ 54
homo 54
hus@@ 54
ind 54
inging 54
jo 54
joe 54
kr@@ 54
mechanis@@ 54
minim@@ 54
profi@@ 54
sche@@ 54
symbo@@ 54
terrori@@ 54
universi@@ 54
veter@@ 54
wind@@ 54
24@@ 53
ala 53
ale@@ 53
batter@@ 53
bei@@ 53
bend 53
bob 53
engine@@ 53
experi@@ 53
geome@@ 53
gle 53
gur@@ 53
immer@@ 53
ipo@@ 53
ires 53
los@@ 53
rul@@ 53
simulation 53
span@@ 53
ste 53
ttle 53
ut 53
ade@@ 52
alter@@ 52
ario 52
bli@@ 52
dile@@ 52
emp@@ 52
garage 52
hl@@ 52
ht@@ 52
introdu@@ 52
invasi@@ 52
kat@@ 52
midd@@ 52
miner@@ 52
pid 52
planet@@ 52
raft 52
restaurants 52
sons 52
therap@@ 52
will@@ 52
2,@@ 51
29 51
dings 51
echn@@ 51
fes@@ 51
h-@@ 51
iness 51
initi@@ 51
johnson 51
lincol@@ 51
mou@@ 51
signific@@ 51
stal@@ 51
streng@@ 51
teach@@ 51
umines@@ 51
28 50
ander@@ 50
att@@ 50
banglades@@ 50
carol@@ 50
clear@@ 50
dow@@ 50
environ@@ 50
extre@@ 50
hat 50
mana@@ 50
metaph@@ 50
nigeri@@ 50
shang@@ 50
ss@@ 50
taliban 50
vent 50
asse@@ 49
bai 49
benjam@@ 49
dul@@ 49
entrop@@ 49
evi@@ 49
iety 49
individu@@ 49
interpretation 49
jose@@ 49
kore@@ 49
leon@@ 49
mt 49
nis@@ 49
oxyto@@ 49
phen 49
phot@@ 49
rs 49
tale 49
tanz@@ 49
tel 49
typ@@ 49
valu@@ 49
venti@@ 49
.a. 48
120 48
alo@@ 48
aster 48
biot@@ 48
dens 48
dung 48
eting 48
fing 48
g-@@ 48
magne@@ 48
ore@@ 48
pag@@ 48
psychop@@ 48
q 48
rat 48
revolution@@ 48
sei@@ 48
sour@@ 48
thei@@ 48
tra 48
w-@@ 48
amer@@ 47
ap 47
barri@@ 47
caf@@ 47
campaig@@ 47
ce-@@ 47
cess@@ 47
festi@@ 47
gens 47
gras 47
hol 47
lei@@ 47
mor 47
previ@@ 47
ration@@ 47
bec@@ 46
cient 46
concern@@ 46
doc@@ 46
finan@@ 46
finger@@ 46
john@@ 46
justi@@ 46
labor@@ 46
landscap@@ 46
laptops 46
mach 46
moun@@ 46
quad@@ 46
soldi@@ 46
strat@@ 46
telescop@@ 46
asy 45
avo@@ 45
carb@@ 45
chemo@@ 45
earli@@ 45
fallen 45
figu@@ 45
gif@@ 45
iso@@ 45
jam@@ 45
knowle@@ 45
lie@@ 45
lief 45
mark@@ 45
mov@@ 45
opti@@ 45
pause 45
peop@@ 45
popul@@ 45
rot 45
stock@@ 45
t. 45
vel 45
ames 44
chem@@ 44
fashi@@ 44
impul@@ 44
inven@@ 44
manu@@ 44
nee@@ 44
offen@@ 44
photogra@@ 44
prac@@ 44
read@@ 44
rei@@ 44
spea@@ 44
spu@@ 44
sten@@ 44
tage 44
there@@ 44
tier 44
tioned 44
austr@@ 43
billi@@ 43
cogni@@ 43
cum@@ 43
dose 43
du 43
gab@@ 43
gil@@ 43
jen@@ 43
machin@@ 43
meta@@ 43
motor@@ 43
probe 43
remark@@ 43
ung 43
wander@@ 43
yor@@ 43
30@@ 42
anal@@ 42
ban 42
bank@@ 42
beauti@@ 42
bir@@ 42
cess 42
dient 42
enzy@@ 42
gie 42
gravi@@ 42
horizon@@ 42
ich 42
ital 42
libr@@ 42
mam@@ 42
ritu@@ 42
seem@@ 42
signifi@@ 42
sim@@ 42
use@@ 42
zon@@ 42
abor@@ 41
afgh@@ 41
bile 41
espe@@ 41
gel 41
ig 41
infra@@ 41
ision 41
llan@@ 41
m-@@ 41
mathema@@ 41
ort 41
program@@ 41
rais@@ 41
satur@@ 41
selves 41
substan@@ 41
sud@@ 41
transplan@@ 41
ularly 41
unter@@ 41
wart 41
+ 40
ama 40
authenti@@ 40
dium 40
ech@@ 40
en-@@ 40
fest@@ 40
fossi@@ 40
lap@@ 40
lun@@ 40
mend 40
ond 40
phic 40
proble@@ 40
sexu@@ 40
tel@@ 40
tent@@ 40
tu 40
utes 40
é 40
abo@@ 39
alterna@@ 39
chel 39
eing 39
ener@@ 39
equi@@ 39
ja 39
know@@ 39
lli@@ 39
met@@ 39
nes 39
num@@ 39
oll@@ 39
pedia 39
phab@@ 39
satelli@@ 39
simu@@ 39
stes 39
stol@@ 39
vey 39
world@@ 39
zin@@ 39
anno@@ 38
anten@@ 38
arm@@ 38
chur@@ 38
cris@@ 38
emotion@@ 38
enor@@ 38
ficial 38
gold@@ 38
oce@@ 38
perfe@@ 38
princi@@ 38
prise 38
rest@@ 38
stir@@ 38
ston 38
stopp@@ 38
strate@@ 38
sup@@ 38
vir@@ 38
con 37
epide@@ 37
gues 37
implan@@ 37
nie 37
nis 37
para@@ 37
politi@@ 37
tty 37
zy 37
beh@@ 36
defini@@ 36
gel@@ 36
ins@@ 36
kal@@ 36
kn@@ 36
nik 36
norden 36
py@@ 36
rt 36
sam 36
teenager 36
ve-@@ 36
aa@@ 35
actu@@ 35
ann 35
brilli@@ 35
com 35
deb@@ 35
dol@@ 35
enha@@ 35
exer@@ 35
itely 35
ket@@ 35
kol@@ 35
lan 35
materi@@ 35
melt 35
nt 35
profess@@ 35
soc@@ 35
stin 35
ter-@@ 35
tts 35
well@@ 35
alia 34
ause 34
dar 34
effici@@ 34
inger 34
laden 34
mati@@ 34
mber 34
nom@@ 34
responsi@@ 34
scap@@ 34
scienti@@ 34
stabili@@ 34
stein 34
tali@@ 34
unity 34
vid 34
aly@@ 33
appropri@@ 33
belo@@ 33
convin@@ 33
dden 33
eth 33
fest 33
pau@@ 33
quick@@ 33
ross 33
sands 33
seri@@ 33
stan 33
tedx@@ 33
adul@@ 32
agi@@ 32
ang 32
aus@@ 32
chemi@@ 32
eil 32
ington 32
ire 32
lied 32
mails 32
ough@@ 32
phy@@ 32
tech@@ 32
through@@ 32
tiger 32
von 32
west@@ 32
beha@@ 31
energi@@ 31
fically 31
hir@@ 31
kilometer 31
ler@@ 31
mexi@@ 31
mobili@@ 31
ollywood 31
perspe@@ 31
resul@@ 31
unter 31
usa 31
atmosp@@ 30
bilities 30
brazi@@ 30
el-@@ 30
integri@@ 30
issu@@ 30
mann 30
mau@@ 30
ony@@ 30
ousness 30
technologi@@ 30
yel@@ 30
anthro@@ 29
astron@@ 29
b. 29
beg@@ 29
beginn@@ 29
ctly 29
dna@@ 29
electri@@ 29
kei@@ 29
notic@@ 29
paki@@ 29
rie@@ 29
suc@@ 29
traff@@ 29
volun@@ 29
vul@@ 29
wen@@ 29
xic@@ 29
zen@@ 29
bet@@ 28
child@@ 28
chron@@ 28
die@@ 28
figh@@ 28
grow@@ 28
halt 28
hundre@@ 28
identifi@@ 28
inge 28
jung@@ 28
las 28
mach@@ 28
mers 28
muse@@ 28
natur@@ 28
passion@@ 28
sie 28
tages 28
tish 28
vat@@ 28
ada 27
bang@@ 27
computer@@ 27
easi@@ 27
ein@@ 27
exist@@ 27
frie@@ 27
gala@@ 27
garten 27
hn 27
hospit@@ 27
mama 27
marke@@ 27
massi@@ 27
nett 27
shou@@ 27
tradition@@ 27
tren@@ 27
bron@@ 26
busin@@ 26
deca@@ 26
dee@@ 26
gement 26
gigan@@ 26
has@@ 26
hm@@ 26
kra@@ 26
lage 26
maga@@ 26
mmer 26
recy@@ 26
sie@@ 26
sten 26
tte 26
vili@@ 26
watt 26
wom@@ 26
block@@ 25
capac@@ 25
chs 25
del 25
doll@@ 25
effec@@ 25
eig@@ 25
ens@@ 25
freu@@ 25
hen 25
hiv-@@ 25
k. 25
kinder@@ 25
nega@@ 25
sach@@ 25
standar@@ 25
stim@@ 25
sug@@ 25
v-@@ 25
valent 25
zine 25
á@@ 25
accor@@ 24
boot 24
cker@@ 24
dn@@ 24
hung 24
infor@@ 24
psy@@ 24
ques 24
soft@@ 24
ssi@@ 24
stati@@ 24
stell@@ 24
tops 24
tot@@ 24
aner 23
bare 23
elli@@ 23
euro@@ 23
fas@@ 23
fort 23
grou@@ 23
imi@@ 23
inner@@ 23
nah 23
perfor@@ 23
pers@@ 23
relev@@ 23
sear@@ 23
urban@@ 23
us-@@ 23
ab 22
allen 22
aller 22
alter 22
bot 22
chin@@ 22
das 22
eit 22
elle 22
enz@@ 22
gat@@ 22
intelli@@ 22
ira@@ 22
iti 22
oly@@ 22
performan@@ 22
presi@@ 22
rd 22
schwar@@ 22
symp@@ 22
tality 22
technolog@@ 22
vil@@ 22
alls 21
americ@@ 21
awar@@ 21
benef@@ 21
bibli@@ 21
big@@ 21
chers 21
employe@@ 21
europa 21
evolution@@ 21
git@@ 21
intellec@@ 21
jour@@ 21
kam@@ 21
kle 21
len 21
marri@@ 21
nie@@ 21
patter@@ 21
rief 21
socie@@ 21
sth@@ 21
stin@@ 21
tremend@@ 21
vag@@ 21
atur@@ 20
avail@@ 20
cals 20
emis@@ 20
hou@@ 20
imp@@ 20
kir@@ 20
let@@ 20
phen@@ 20
pian@@ 20
rand 20
rant 20
resour@@ 20
rin@@ 20
spiritu@@ 20
tempor@@ 20
toll 20
vide@@ 20
zar@@ 20
anim@@ 19
aus 19
bili@@ 19
digit@@ 19
eins 19
energ@@ 19
famili@@ 19
gar 19
hri@@ 19
je 19
kab@@ 19
lang@@ 19
osau@@ 19
oxy@@ 19
pel 19
pie@@ 19
poe@@ 19
sat@@ 19
stop@@ 19
tea@@ 19
tie@@ 19
vail@@ 19
aler 18
ein 18
eur@@ 18
foreig@@ 18
handy 18
internation@@ 18
kur@@ 18
maj@@ 18
milit@@ 18
other@@ 18
ox@@ 18
ruption 18
tten 18
u.@@ 18
wiki@@ 18
anders 17
atz 17
call@@ 17
europe@@ 17
geria 17
ik 17
intelle@@ 17
lem 17
meer 17
parti@@ 17
ppe 17
professi@@ 17
witz 17
zur@@ 17
) 16
2-@@ 16
a. 16
cule 16
deu@@ 16
eri@@ 16
fahr@@ 16
fort@@ 16
gul@@ 16
hr 16
kamen 16
kay 16
kri@@ 16
kt 16
mali@@ 16
mee 16
miss@@ 16
mond 16
nas@@ 16
situ@@ 16
tern@@ 16
won@@ 16
affe@@ 15
auto 15
bau@@ 15
comfort@@ 15
enheit 15
event@@ 15
ffe 15
gend 15
geri@@ 15
glas 15
informa@@ 15
kap@@ 15
klein 15
lang 15
leu@@ 15
lich@@ 15
prot@@ 15
rhy@@ 15
solu@@ 15
% 14
.b. 14
= 14
aut 14
bitten 14
bren@@ 14
cken@@ 14
derer 14
diab@@ 14
dies@@ 14
engli@@ 14
esse 14
extrem@@ 14
feed@@ 14
fern@@ 14
goog@@ 14
hab 14
ille 14
intensi@@ 14
invisi@@ 14
lagen 14
ould 14
posite 14
simp@@ 14
sophisti@@ 14
train@@ 14
vern@@ 14
wu@@ 14
zy@@ 14
000 13
@ 13
alt@@ 13
bald 13
beri@@ 13
chen 13
chro@@ 13
cke 13
egal 13
ellen 13
exac@@ 13
fei@@ 13
fren@@ 13
grad 13
him@@ 13
kli@@ 13
klu@@ 13
medic@@ 13
nte 13
organ@@ 13
pagne 13
pover@@ 13
safe@@ 13
sch 13
schil@@ 13
sein 13
studi@@ 13
tivi@@ 13
unbe@@ 13
where@@ 13
wick@@ 13
… 13
# 12
astern 12
atem@@ 12
betra@@ 12
curity 12
dit 12
ek@@ 12
gei@@ 12
heim 12
kurz@@ 12
leb@@ 12
meister 12
mus 12
ogen@@ 12
omen 12
phar@@ 12
ring@@ 12
stero@@ 12
weapon@@ 12
weib@@ 12
weil 12
í@@ 12
alg@@ 11
autos 11
bis 11
cken 11
dab@@ 11
dn 11
isla@@ 11
kla@@ 11
km 11
kro@@ 11
olog@@ 11
rough@@ 11
schwi@@ 11
stom@@ 11
strom 11
tier@@ 11
tol@@ 11
ó@@ 11
– 11
aden 10
britan@@ 10
dem 10
desig@@ 10
dimension@@ 10
dise@@ 10
fanta@@ 10
ffe@@ 10
herr@@ 10
hmen 10
mexic@@ 10
mole@@ 10
ok@@ 10
pro 10
sili@@ 10
stab@@ 10
stige 10
ted-@@ 10
telev@@ 10
terr@@ 10
toll@@ 10
w. 10
abili@@ 9
eine 9
ender 9
erer 9
feld 9
fen@@ 9
fiel@@ 9
geist 9
ges@@ 9
ih@@ 9
intu@@ 9
ith 9
kind@@ 9
kinder 9
klei@@ 9
liche 9
mei@@ 9
meth@@ 9
mir 9
mith@@ 9
norm@@ 9
normal@@ 9
rad@@ 9
spen@@ 9
spit@@ 9
stark 9
stein@@ 9
stern 9
stung 9
two@@ 9
vier 9
wollen 9
wur@@ 9
zeit@@ 9
zu 9
è@@ 9
( 8
auge 8
brot 8
cept 8
chen@@ 8
chir@@ 8
diag@@ 8
feu@@ 8
gend@@ 8
gni@@ 8
gren@@ 8
gs@@ 8
hoff@@ 8
instit@@ 8
kas 8
kle@@ 8
kus@@ 8
lag 8
nerv@@ 8
paci@@ 8
pf@@ 8
privat@@ 8
rau@@ 8
rem 8
scha@@ 8
sche 8
sophi@@ 8
stens 8
stud@@ 8
stur@@ 8
tex 8
til 8
^ 7
atten 7
beau@@ 7
best@@ 7
bie@@ 7
buch@@ 7
cht 7
chter 7
fen 7
frei@@ 7
funk@@ 7
geb@@ 7
gyp@@ 7
hl 7
kel 7
kun@@ 7
lle 7
masse 7
muster 7
mutter@@ 7
natu@@ 7
oren 7
ote 7
percent@@ 7
rad 7
schen 7
slow@@ 7
sung 7
tei@@ 7
vices 7
your@@ 7
_ 6
angi@@ 6
brau@@ 6
cht@@ 6
den-@@ 6
dir 6
eis@@ 6
eren 6
face@@ 6
feel@@ 6
gele@@ 6
gem 6
haus@@ 6
job@@ 6
kapu@@ 6
lager 6
langu@@ 6
ld 6
lik@@ 6
malari@@ 6
nach@@ 6
pment 6
raid 6
reich 6
schnei@@ 6
schul@@ 6
spiel@@ 6
stad@@ 6
stif@@ 6
them@@ 6
thom@@ 6
tice 6
tig@@ 6
tod 6
tung 6
u-@@ 6
uten 6
verti@@ 6
wen 6
wie@@ 6
zir@@ 6
aber 5
cisco 5
degre@@ 5
ehrlich 5
emo@@ 5
ende 5
famil@@ 5
ffen 5
health@@ 5
industr@@ 5
infi@@ 5
ings@@ 5
inn 5
isch 5
jes@@ 5
kleiner 5
kraft 5
kul@@ 5
mel 5
mitten 5
mme 5
n. 5
neur@@ 5
nun 5
prei@@ 5
protot@@ 5
ries@@ 5
rö@@ 5
samer 5
sich@@ 5
sinn@@ 5
solar@@ 5
stab 5
stead 5
steu@@ 5
tau@@ 5
techn@@ 5
tem 5
tete 5
trie@@ 5
ully 5
video@@ 5
wand 5
zent@@ 5
í 5
acht 4
angst 4
asse 4
att 4
auff@@ 4
baum@@ 4
blas@@ 4
califor@@ 4
chines@@ 4
dass 4
disci@@ 4
doch 4
econ@@ 4
ele 4
ente 4
erin 4
ernst 4
etes 4
etz 4
fore 4
ften 4
grie@@ 4
hast 4
heu@@ 4
insel 4
kern@@ 4
koll@@ 4
kom@@ 4
kre@@ 4
kt@@ 4
kung 4
minde@@ 4
mobil@@ 4
mund 4
nen 4
omen@@ 4
orten 4
pite 4
tern 4
viron@@ 4
wagen 4
ween 4
wein@@ 4
ã@@ 4
ç@@ 4
ê@@ 4
อ@@ 4
* 3
absol@@ 3
aga@@ 3
ameri@@ 3
assen 3
auf 3
bein 3
berg@@ 3
besser 3
brei@@ 3
brenn@@ 3
bs@@ 3
det 3
det@@ 3
drin 3
eben 3
enz 3
erde 3
every@@ 3
expon@@ 3
felder 3
fert 3
fig 3
fisch@@ 3
flei@@ 3
gabe 3
gebra@@ 3
gegen@@ 3
genug 3
glau@@ 3
goti@@ 3
gross@@ 3
happen@@ 3
hart 3
haus 3
ien 3
intelligen@@ 3
internet@@ 3
klas@@ 3
klo@@ 3
kog@@ 3
kop@@ 3
ktor 3
kunst@@ 3
lange 3
lige 3
liqu@@ 3
mend@@ 3
mie 3
mier@@ 3
nah@@ 3
nein 3
ob 3
ober@@ 3
onie 3
opport@@ 3
pf 3
programme 3
rami@@ 3
repar@@ 3
schi@@ 3
schizop@@ 3
schle@@ 3
schwei@@ 3
sep@@ 3
ske@@ 3
spiegel 3
stil 3
strateg@@ 3
tat 3
tet 3
teu@@ 3
toge@@ 3
toile@@ 3
tun 3
ult 3
uner@@ 3
wald 3
yester@@ 3
zep@@ 3
zig 3
zit@@ 3
zog 3
zop@@ 3
 3
 3
â 3
ñ@@ 3
ö@@ 3
abend 2
absolu@@ 2
alen 2
alles 2
atur 2
aum 2
bein@@ 2
bele@@ 2
blatt 2
casi@@ 2
chti@@ 2
complex@@ 2
dership 2
destru@@ 2
dok@@ 2
dorf 2
eben@@ 2
echt 2
eigen@@ 2
einem 2
eler@@ 2
ement@@ 2
entre@@ 2
essen 2
fft 2
fs@@ 2
für 2
ganz 2
geld@@ 2
gung 2
halten@@ 2
herr 2
hier 2
hin 2
hinder@@ 2
hinter@@ 2
hle 2
holt 2
ige 2
iger 2
immer 2
incredi@@ 2
kilome@@ 2
kran@@ 2
kus 2
langer 2
lauf@@ 2
laut 2
leiter 2
lern@@ 2
lich 2
licht@@ 2
mein@@ 2
merk@@ 2
micha@@ 2
mitt@@ 2
nen@@ 2
nst 2
ost@@ 2
possi@@ 2
prü@@ 2
pä@@ 2
quas@@ 2
reich@@ 2
relation@@ 2
roh@@ 2
rote 2
scher 2
schlei@@ 2
schmu@@ 2
schn@@ 2
seine 2
smit@@ 2
spie@@ 2
ssen 2
stag 2
stern@@ 2
sz@@ 2
trie 2
tsch@@ 2
uss@@ 2
verk@@ 2
vier@@ 2
vog@@ 2
waff@@ 2
wie 2
wird 2
wus@@ 2
zei@@ 2
zin 2
zt 2
à 2
ä@@ 2
ø@@ 2
ü@@ 2
ā@@ 2
ร 2
่ 2
.. 1
.000 1
\ 1
abli@@ 1
aku@@ 1
allgemeinen 1
anz 1
auf@@ 1
autor@@ 1
baum 1
bei 1
bern 1
blau 1
bras@@ 1
brasili@@ 1
cen 1
charac@@ 1
chic@@ 1
childr@@ 1
das@@ 1
debat@@ 1
denly 1
deut@@ 1
devel@@ 1
diesel@@ 1
dopp@@ 1
druck 1
durch 1
effi@@ 1
ei 1
eigent@@ 1
elles 1
eln 1
engl@@ 1
ertes 1
ewi@@ 1
feuer@@ 1
ffee 1
fisch 1
flori@@ 1
frau 1
freude 1
fte 1
gab 1
gedanken 1
gem@@ 1
gere@@ 1
geru@@ 1
gerä@@ 1
geschü@@ 1
gott 1
guten 1
gö@@ 1
habe 1
haft 1
haut 1
heim@@ 1
herz 1
hie@@ 1
hlen@@ 1
holz@@ 1
hosp@@ 1
hren@@ 1
idee 1
ingen 1
internationale 1
ische 1
kam 1
kampf 1
kapital 1
kauf@@ 1
keiten 1
kenn@@ 1
kern 1
kolle@@ 1
konz@@ 1
krieg 1
ktu@@ 1
kunst 1
kö@@ 1
kü@@ 1
lebe@@ 1
legen 1
lichen 1
liches 1
lig 1
llen 1
lok@@ 1
lö@@ 1
mals 1
manhat@@ 1
marki@@ 1
mathe@@ 1
maus 1
meet@@ 1
mehr@@ 1
mein 1
meine 1
mensch 1
mensch@@ 1
mie@@ 1
minister@@ 1
molecul@@ 1
moral@@ 1
morgen 1
movi@@ 1
mut 1
mä@@ 1
möglich 1
national@@ 1
neue 1
nung 1
obvi@@ 1
onen 1
online-@@ 1
othe@@ 1
politik 1
ppen 1
rants 1
rech@@ 1
recht@@ 1
rede 1
regel@@ 1
regen 1
regen@@ 1
rett@@ 1
risi@@ 1
schaf@@ 1
schau@@ 1
schen@@ 1
schl@@ 1
schluss 1
schnell 1
schu@@ 1
schwe@@ 1
sei 1
sohn 1
spezi@@ 1
spiel 1
spru@@ 1
sse 1
sst 1
stie@@ 1
sweise 1
sä@@ 1
tere 1
thema 1
trum 1
tsam 1
tze 1
tzen 1
tzt 1
unities 1
verdi@@ 1
viel@@ 1
von@@ 1
weg@@ 1
wege 1
welche 1
welle 1
welt 1
wider@@ 1
wies@@ 1
windo@@ 1
wirkungen 1
wo 1
zel@@ 1
zell@@ 1
zelle 1
zielen 1
zun@@ 1
zur 1
zw@@ 1
zwe@@ 1
zwei@@ 1
£ 1
² 1
â@@ 1
è 1
ë@@ 1
ï@@ 1
ô@@ 1
ön@@ 1
ú@@ 1
über@@ 1
ă@@ 1
ć 1
ē 1
ť 1
ย 1
ย@@ 1
€ 1
你@@ 1
葱 1
送@@ 1
madeupword0000 0
madeupword0001 0
madeupword0002 0
